BDF1ABB1
3F66CBC4
BC18F585
BE71073A
BD540F26
BF264769
3ECC3037
3F33039C
BF8FFFE8
3F9CB887
BEBF3A8C
3E9F1966
BF6CDA97
BECF126F
3FBE1D29
3EF94006
3F09A057
3E9B42C0
3F335965
3FC5B9EA
3B8D72DA
3F8D07E8
BF88DEA9
3F83E400
3F4D9C3E
3F9939AE
406F79C4
4012C0DB
3F909C81
402C5A58
3EFC9B3C
3E7FA033
BEDDBF0C
BE46ED75
3F838A1D
3F7A378E
3FE0738C
4040EB85
3FC93D1E
3C04E1FD
BFC9FCBF
3DE546B0
3EDCC4FA
BEE8E9D2
BEFFA981
3EA85992
4020F09F
4002ACBF
BF9145EA
4039F739
C020D64D
3EBE940A
3D1F2E2B
3F02AEE6
BEFD0C3C
3E9CA412
400513CA
3F9BFCC5
BEB12264
BF613C70
3F037DCD
3F25E621
BF91B74E
3F05C0CA
