3F14C0AF
3F223D73
3F154CDB
3F4319E4
3F0ACD3C
3F3A0D12
3F1ABEE4
3F1F7A10
3F13E42A
3F27D7C6
3F239BF4
3F2BC8C5
3F4D3026
3F26FA9A
3F20D553
3F1B3D62
3F22576B
3F1011FD
3F324FED
3F280335
3F3CF405
3F06DAFD
3F2FF182
3F39737A
3F1CB8F8
3F2D762C
3F1D1EE3
3F3CF534
3F0DEFB5
3F296B4F
3F1367CE
3F195101
