BE091036
3F3B8B21
3F265D1A
3D93690F
3F09F019
3E5D504C
3F01B888
BE3E8480
3D438030
3F072E6D
3F40DD20
3ED819C5
3F290653
BE20A887
3EFBEE38
BEE02729
3F553E29
3EBBCD79
3F41D7DC
BEB4CEE4
BE3B40A8
BCF6FC9C
BD82A915
BD146FE7
BE06EC22
3D893500
BCFAD25F
3F465825
3F2CDC5C
3E463900
BD93F10B
3F6EB77C
