BF05AEFE
3E40419B
3EACD7AE
3F4C981F
3FD05F1B
3D4F9A01
BDA95D20
3F861DB4
3F03C98D
3EC29BE6
3F3682C3
3FA9A47A
3D66EFD9
3E3C9AB8
BF207162
3EE2FF6E
3F8BAD9F
3E13E560
BCF12F02
BF99DD56
BD0F8600
BFA16A44
3F712186
BBA8CD7F
BE9F33C6
3F62F94D
3EA40514
3D058C01
BDA077CF
3E11CF87
3F894055
3EE7CA08
3E91126C
3E6473C0
BF05F204
3FC384E2
BE3A68A8
BF9BA8C2
3D048589
3EE71007
3FC13FC5
3F3779C6
BEB066DC
3F05FE00
3F214266
BF100A86
BD803770
3F0E33A6
BF0F8493
3EA92BAF
3ED7DE56
3E9F8B82
3F3BCBA0
3F418840
BF278C40
3F03F0A6
3F49EB3F
BF044075
3EC600C6
BEBA9604
3F8F5F23
3CBBF29F
3EC0CAD6
3F1374A2
